11111111111111111111111100110011
11111111111111110011111101011011
11111111111111100000100100011010
11111111111111000011111010000100
11111111111101110011100101111100
11111111111101110111100010111101
11111111111100110010011011010000
11111111111100000000001100110011
11111111111010110000100010110011
11111111111011111010100010110110
11111111111101101011110101101101
11111111111111011111001011001101
11111111111111111101110111000100
11111111111111101110101011101100
11111111111111001000110110111110
11111111111100111100011001001111
11111111111011111101100111000111
11111111111011111001110011101100
11111111111011101110101001101111
11111111111011101001110111011010
11111111111011011111001100110101
11111111111011010111001101011110
11111111111111011011101001111100
00000000000000101010111111111110
00000000000000000001101101100111
11111111111111101000000100111101
11111111111110000111110001111011
11111111111011110111010110000110
11111111111100101110011111100001
11111111111100001110110110111011
11111111111000111010000110111100
11111111111010001100101111010100
11111111111101011101010101010110
11111111111010110010110110110000
00000000000000110010100101010110
11111111111111111100110001111011
00000000000000000001100010110010
11111111111111011010110110011010
11111111111110010011101000111111
11111111111110010011010001111111
11111111111110100101111000001000
11111111111101100000110111111001
11111111111001001010101100110001
11111111111111101001001111101111
11111111111111011110110010011000
11111111111110111110000000111110
00000000000000110011100001010000
00000000000000011010110011111011
11111111111111111100000011111000
11111111111111011001100100010101
00000000000000100111001000101010
00000000000000101101111110000011
00000000000001110101011100010101
00000000000010111010110110001101
00000000000001100111001100011000
11111111111111011010100101110100
11111111111111111101001110101100
00000000000001001100010110010110
00000000000010000000110010010100
00000000000010010101100011101110
11111111111111111000000010100001
00000000000000110001110111001000
00000000000100101110010111100010
00000000000010100111101010101000
00000000000110001011110011001110
00000000000111011001001100110110
00000000000001101000110001010011
11111111111011100011001011010110
00000000000000101010111101110111
00000000000000111101110010101111
00000000000010100000011101000011
00000000000011011001001110000011
11111111111111111011000010111111
00000000000001011001101111011110
00000000000100111000000000010001
00000000000101000100111100111111
00000000001010100110100111101000
00000000000110110010100001000101
11111111111011000111101010110010
11111111111100110000011100100000
00000000000010101100111011010111
00000000000001000101010111011000
00000000000010101010011011110111
00000000000011011110010101010010
11111111111111111011101110010000
00000000000001000100001111100101
00000000000010011100010100000110
00000000000101001001010010100011
00000000001001111010100011001011
00000000000001011111100110100110
11111111111010000001101111101101
00000000000000010110001111001010
00000000000010010000001100111111
11111111111111101011111011111001
00000000000010110100100100101001
00000000000010101101101010010101
11111111111111111000110110100111
11111111111111100100000000110110
00000000000000110100010011110110
00000000000100110100011111100000
00000000000101001100100111101100
11111111111101000110010111010100
11111111111110100100010010001111
00000000000001101001111110111110
11111111111101000110100011011000
11111111111101101010011001000111
00000000000011010000000011110111
00000000000000101100111100011010
11111111111111110101011110101101
11111111111111010110100110001110
00000000000000000101111010011010
00000000000001101110110101100110
00000000000000011010111000111001
11111111111100000100100001101100
11111111111100000011111011001111
11111111111100001111000100011011
11111111111100001000010111110110
11111111111110110101011010011001
00000000000001011011010010101100
11111111111111100111001011100001
11111111111111111100110011011000
11111111111111110000111000101110
11111111111111011110001110100110
11111111111110110100000011000001
11111111111101100010100001001110
11111111111010110101100011001100
11111111111011000100001100111101
11111111111101000000110000100001
11111111111100111001111110101011
11111111111110011001011100001111
11111111111111001111101100110110
11111111111111100100101101101011
11111111111111111111010000000101
11111111111111101110001101001100
11111111111111010001111101100000
11111111111101111101111111001101
11111111111010110001011010110011
11111111111000111110101000100001
11111111111000011010011101000010
11111111111010111000101110001011
11111111111011111111011111110101
11111111111101111010000111001001
11111111111111011111000101110010
11111111111111111001001000000011
11111111111111101111111111000001
11111111111111010000111101000100
11111111111110011011010001010111
11111111111101101010110111101101
11111111111101011110010001110001
11111111111101100100110010001010
11111111111101001001010111010110
11111111111101100100110100111100
11111111111110010111000010110001
11111111111111000001110100001100
11111111111111110010000101001101
11111111111111111101110100001110
11111111111111101001011011000111
11111111111110100010010100010101
11111111111100101010000011011101
11111111111100100011100010110010
11111111111101010110001101110011
11111111111101110000000010010100
11111111111111011010100000101101
11111111111111110111110010010101
11111111111111110101110111111101
11111111111111000100001101011000
11111111111111000011110100100101
11111111111111100010001111100000
11111111111111011000011110100011
11111111111110010111011000101010
11111111111100001101001101111001
11111111111100000100000011110111
11111111111101110101100000010111
11111111111110101101100111101000
00000000000000100000001110011100
00000000000000111011010101101010
00000000000000001010111110001010
00000000000000000110110001110011
11111111111111001000100111101000
11111111111110101100001101101100
11111111111111010000111010001111
11111111111111000001000000010111
11111111111101011100010011011001
11111111111101110101000001001110
11111111111111010011000110110011
11111111111111000010011001101001
00000000000000011111010011110010
00000000000010000111010001010100
00000000000001011001110010111000
00000000000001111000010101110001
00000000000000100101100111100010
11111111111111000000101101011010
11111111111111110001101110110110
00000000000000100000100110001100
11111111111110100011111100110010
11111111111101111110100111000011
11111111111110101001001111000101
11111111111100111110010111000111
11111111111111011101010110010001
00000000000011100000100011101000
00000000000011000110101101010001
00000000000101001101010001111000
00000000000011010010011101010101
11111111111111110010111111110011
00000000000001010100011101010010
00000000000010101111111010000010
00000000000000000101101001011001
11111111111111000011000011110110
11111111111100101111110100011101
11111111111100110100001001100111
11111111111101101110011100110100
00000000000011010010001010101111
00000000000110000011010001001001
00000000000110101000000001111101
00000000000100011100100101001111
00000000000000010101000000010101
00000000000010011011001001000011
00000000000101000110110010010101
00000000000010001000010011010110
00000000000010001110010001010100
11111111111101100100011101001110
11111111111011101011111000011111
11111111111100000010110001000010
00000000000010000110001011010010
00000000000101000010100000000110
00000000000101111000110011010111
00000000000011110001110111110110
00000000000000001101100110000101
00000000000010100101101100001110
00000000000101110010010100110010
00000000000011010011100000001000
00000000000100001100110111100011
11111111111110100111000000011101
11111111111001111011001011111011
11111111111100011000100110100110
00000000000000011111111000001110
00000000000010101100010001110011
00000000000100001110101111001100
00000000000010001110111110000010
00000000000000000000110010101000
00000000000001010111001011000010
00000000000100100001101010111011
00000000000000111101001000000000
00000000000100011110110101001110
00000000000000110000110110101001
11111111111001000111001110010011
11111111111100011000110100010010
11111111111110100111100000111010
11111111111111010100111111010010
00000000000001001000000100010011
00000000000000001011100000010110
11111111111111110100001100011001
00000000000000000101000111001000
00000000000011000000110101010011
00000000000000111000100000110011
00000000000010110010100101101100
00000000000010101100011100101101
11111111111010110111101101110110
11111111111001111111101001001110
11111111111010011101100001110110
11111111111100000000000011111000
11111111111111000010000001001000
11111111111111001001100010110110
11111111111111110101001001110100
11111111111111100011001100101100
00000000000001100110101110110101
00000000000010001011011101100010
00000000000010000010001110110011
00000000000010100110111011010010
11111111111101101110100111101101
11111111111010001100111010100001
11111111111010011000110111000000
11111111111011100110011011110010
11111111111110101001110101110010
11111111111111011110101111011110
11111111111111111110110000001011
11111111111111101000001110111010
11111111111111010110100101100110
11111111111110101110001110010000
11111111111100100011010100011110
11111111111100001110101110010111
11111111111011001000001101110100
11111111111010001010111010011111
11111111111011011100011011100011
11111111111101000000000110011011
11111111111111000010100000001011
11111111111111110100101111010010
00000000000000000000011111101100
11111111111111111011101100110011
11111111111111111010110011101101
11111111111111110100001111001101
11111111111111011001101101011000
11111111111110111101110000111001
11111111111110111100010111000101
11111111111110101100100100010010
11111111111110100111111110001111
11111111111110100110011100010011
11111111111110101101101010111100
11111111111111010010100011110101
11111111111111110100110000011011
11111111111111110101100101100000
11111111111111011110000111110010
11111111111110101110000011101111
11111111111100000011111001001001
11111111111001010111010011111111
11111111111010100110110010111000
11111111111101100100110101110101
11111111111110001001011011010110
11111111111010110011101111100111
11111111111010110001001001100011
11111111111100100010100111010011
11111111111110110100100100001001
11111111111111110011000110011010
11111111111110100101001101100011
11111111111011101111110111110101
11111111111001000001011001101101
11111111110111001100001101101010
11111111111001111110100000010011
11111111111011001110000101011000
11111111111010011000001110111101
11111111111010100101110110001100
11111111111011010110101010001111
11111111111100000000110101011011
11111111111101011011110111100101
11111111111111100110011111010111
11111111111110011111010001010110
11111111111100110010011101010001
11111111111011010111100010110010
11111111111010011011111110010001
11111111111000000010110001011110
11111111110111110001000001100101
11111111111010001010101001011001
11111111111001110010010010110100
11111111111010010100011101011100
11111111111010111000111100000111
11111111111100110111001001100100
11111111111111101111100100000011
11111111111110101110101111010000
11111111111101101011011001111001
11111111111100011001110101101101
11111111111011011110111110101000
11111111111011110110100101000011
11111111111101010011111000111100
11111111111100101111101110000101
11111111111001111011001001001101
11111111111010100010001000100011
11111111111011011101110000101000
11111111111101011111000000100110
11111111111111010110110101000010
11111111111101101010010000101101
11111111111010011011011101111010
11111111111001011010110001011000
11111111111001101100010011010000
11111111111010010011100101001111
11111111111010000100010010101001
11111111111001000110011010100100
11111111111010000101011110110111
11111111111011000001001010110100
11111111111100001110001010110111
11111111111110100011000000010111
11111111111111101110111000101100
11111111111101000011011111000111
11111111111000100100011001100110
11111111110110010111101110111111
11111111111000010111111100010101
11111111111000010110010001000100
11111111110111010011001110000101
11111111110111110110100011101010
11111111111011001000111100010110
11111111111101011000011010011010
11111111111110010001010010001110
11111111111111001110101110111010
11111111111111100101011000001110
11111111111100100010101000110100
11111111111001100010010000010101
11111111111000100110101011011011
11111111111001010001010111101000
11111111111000101010100111101110
11111111111001111111111001101010
11111111111101001101110000001000
11111111111111010001010111111100
11111111111110111110110010000111
11111111111101101100100001001010
11111111111110111011110000001000
11111111111111100100100111011110
11111111111110010100000001101101
11111111111101111010111011101101
11111111111110101010111110101000
11111111111101111100011011111000
11111111111111100100001100011010
00000000000010011011111000010010
00000000000010101111000111101010
11111111111110010101010001011011
11111111111101110111101011011000
11111111111110100011000110101010
11111111111111011010001110010000
11111111111111111110100010000110
00000000000000110011010110101111
00000000000001011101010100010101
11111111111111001111000000000111
11111111111111000110011011101011
11111111111111110110000011110000
11111111111101101010011101110010
11111111111101010111000101001000
11111111111110000111111110110111
00000000000000010011100000101101
00000000000000010011000010110111
11111111111111100000100111001100
11111111111111011111010100111111
00000000000000011000001011001110
00000000000010001001100101101000
00000000000001111101011011100100
00000000000011110101001000000100
00000000000100100110001000000110
00000000000011000110111010001100
00000000000010101000100000100111
00000000000000010011111111111110
11111111111110111001010111000111
11111111111111001011110111100010
11111111111111100111010101011001
11111111111111100110101110010100
11111111111111000100100110101101
11111111111110111011110001111001
11111111111101111111101100011110
11111111111101100111110010111111
11111111111101111101011111100100
11111111111101101010111110000011
11111111111101101000100011101000
11111111111100111010101110101011
11111111111101101000000001000110
11111111111111000100011011011010
11111111111111110100011101000100
11111111111111111011101100001101
11111111111111101101100001100000
11111111111111010010000111010000
11111111111110101010000111110010
11111111111101101101010110111000
11111111111101000100111010010000
11111111111011111001100011001111
11111111111011101111001101110001
11111111111011110000110100001010
11111111111100111111010101110101
11111111111110100000000010101001
11111111111111101011111011010110
11111111111111111010000111111101
11111111111111011011001110000010
11111111111110010110100100000000
11111111111101100001010000100101
11111111111101100101110111110111
11111111111110111000000101111000
00000000000000011111111011001111
11111111111111111110001000100100
11111111111111011010001011101111
11111111111111011010100110001010
11111111111111001100100111111010
11111111111111100000100111001011
11111111111111110111010011001010
11111111111111001111001110110010
11111111111110000110001110111010
11111111111101101000011111000111
11111111111110101011101100010001
11111111111111001110111110111101
11111111111111101101011100000110
00000000000000101000111110110101
00000000000001000101011111000100
00000000000000001100101111110001
11111111111111011100011101010011
11111111111110100100010101110011
11111111111111110000010011110101
11111111111111011011000111010010
11111111111111001011100100000111
11111111111111110110100101110101
11111111111111100111000001111011
11111111111111010100000100000111
11111111111111101101010100111100
00000000000001101100110001011001
11111111111111011110111110100100
11111111111101111100000000000001
11111111111101100100000110101011
11111111111101110011100111011111
11111111111111111001100101110110
11111111111111111101100010000100
00000000000000100010100111000010
11111111111111110010111010001001
00000000000000000001001000010111
11111111111110100010110000010011
11111111111100111001111011100000
11111111111100010111001100111001
11111111111100100110010110101100
11111111111101110100111111100100
11111111111111001001110010111100
11111111111110110101110101000110
00000000000000001101100010001010
00000000000001010001011111110111
00000000000010001111001000110100
00000000000001110111011011111110
00000000000000000011100100000110
11111111111011101110000111101001
11111111110111010111111100110100
11111111111000000111011011111000
11111111111011101001110010100111
11111111111101110001100100010111
00000000000000010000011100101001
11111111111111011101011010010011
00000000000000010111011111001111
00000000000010001100000101011010
00000000000010111111111001001110
00000000000001110101101111111010
11111111111110001101010111010001
11111111111000000000000110111101
11111111110101010111100010100110
11111111111001110110101101111010
11111111111110011100101110010110
11111111111111100000100001100010
00000000000000100001100111100000
11111111111111101111000000100000
00000000000000010101111000010000
00000000000010010010000100010001
00000000000001110011100111100100
11111111111111110100100100011000
11111111111100100000110100001001
11111111110110110101101110101001
11111111111001000110010001011110
11111111111110011001100100110011
00000000000000101111101011101110
00000000000000001001101111100010
00000000000000010111110111110000
11111111111111010100011000010011
11111111111111111011011000110101
00000000000001011010010101011010
00000000000000000111100111010000
00000000000000100001110100001111
11111111111111101000111111101011
11111111111100111011000100101100
11111111111111001100110100001000
00000000000001110111000011010011
00000000000001000000011001110110
00000000000000111101111111101111
00000000000000010111110100010100
11111111111111011001111111010101
11111111111111101100100011101101
00000000000000101011101101100000
11111111111111101000100101101110
11111111111111101100001101111101
11111111111111010110010011000010
11111111111101011000001001101101
11111111111110111110000010010011
11111111111111100011101110001111
11111111111110100011100000110100
00000000000000001001110110111011
11111111111111100000011110101001
11111111111111101010111111010111
11111111111111101111111110000101
00000000000000001110011101101000
00000000000000011010010011000001
00000000000000011011000110010011
00000000000000101101000011000000
00000000000000010110011110010010
00000000000001111100001100101111
00000000000000011001000100001001
11111111111110101011111001111000
11111111111111001110100111110011
11111111111111100011001001110011
11111111111111110101101110011001
11111111111111111100010100111010
11111111111111100111101010101101
11111111111110101110110010000000
11111111111101000011100000000111
11111111111100001011000001011000
11111111111100010000100011000111
11111111111101001001000010100101
11111111111110000010001011011111
11111111111110100100000111010011
11111111111111011010010101011111
11111111111111110011000110000111
11111111111111111110110000000001
11111111111111111101101111111111
11111111111111110000110100000110
11111111111111010100000000111001
11111111111110001111000000101011
11111111111101010110110000000101
11111111111100110101100111000000
11111111111011100000010000000110
11111111111011010000001011000011
11111111111010111000011001101001
11111111111100100111110011001110
11111111111110100010101011011011
11111111111111110000110010011001
11111111111111111110011011111100
11111111111111100000010000010100
11111111111110011011101100010000
11111111111100001001011111000110
11111111111100101100000010101011
11111111111101100100000001111110
11111111111110110010001110111101
11111111111100111001011001000010
11111111111110001011100100001010
11111111111101000110011101111000
11111111111111011011100011111001
11111111111111101000000110011100
11111111111111111011010001011111
11111111111111001010101011110101
11111111111101010100011100000110
11111111111100111000101101010010
11111111111110010110001111010111
11111111111110000010111110111101
11111111111100000001001000010110
11111111111110110001110010101000
00000000000000000001100011110110
11111111111100111101010011100111
11111111111110001110001011000011
11111111111101111000100110100001
11111111111111101111110110010010
11111111111110111111111110000010
11111111111110110110100101011010
11111111111110101000010010001001
11111111111101110001100101110010
11111111111101000000010011010100
11111111111100101100110000111110
00000000000000000011111110011111
11111111111101010001001101101110
11111111111100101011011100001110
11111111111101000110011011101110
11111111111110000110111110110000
11111111111111110100101010100001
11111111111111111010000000101100
00000000000010011001101000111001
11111111111110000001000011111000
00000000000000011000101110100111
11111111111111111000011000011110
11111111111101110000111011101101
11111111111010010101110000101110
11111111111010010101101111110000
11111111111101011101001000001010
00000000000000110000011000100011
11111111111111011110000000111010
11111111111111110000100110010111
00000000000010010101000000011100
00000000000011000110000010100111
00000000000010110101010110101111
00000000000100000101010010001001
11111111111110110010111100000001
11111111111001110101110010010001
11111111111000110110101110001011
11111111111011101010010100001010
11111111111110111010101001011010
00000000000010110010101101010110
00000000000000000010000001110100
11111111111111100100000011110111
00000000000100010000000111001110
00000000000100010111010010111001
00000000000011110101011100001001
00000000000000010100111100001010
11111111111010110101100010110110
11111111111000010101000001110001
11111111111100001110101000010000
00000000000000010100110110100110
00000000000001000000100111101110
00000000000010011001110101010001
00000000000000000110111001000000
11111111111111010101010100111000
00000000000010011000110100000001
00000000000010010011111001011100
00000000000000100001011010000101
11111111111101111100101101101000
11111111111001110101100000000110
11111111111011101101111000011100
00000000000010001101110011101110
00000000000010100101011000100001
00000000000000110011011111000101
00000000000010001001101110001011
11111111111111011010100101101000
11111111111111010010001101001011
00000000000000100110000110100011
11111111111111010110111000001000
11111111111101011011110001110000
00000000000000000011111000111111
11111111111110100001010100101001
00000000000000111110111000000011
00000000000010111010001110001011
00000000000000101000010010001001
00000000000010001111011110010111
00000000000010010010011100111100
11111111111111011110110001001011
11111111111111100011110111011111
00000000000000010111110011110100
11111111111110100001011000111011
11111111111110000101011111001011
11111111111111000000011111000010
11111111111100010010111000110000
11111111111110100010111110001100
11111111111111100110100011000001
11111111111110100100011100100101
00000000000001001100011001001110
11111111111111101111000000100101
11111111111111101010111010101110
11111111111111110100001110110100
00000000000000000001001110100001
11111111111110110000011000100111
11111111111110011010100110100101
11111111111100011111100101010111
11111111111011001011011100010101
11111111111101010100000000101101
11111111111110001000011011000101
11111111111101101010101001110110
11111111111111010000001111001001
11111111111111101001011010100110
11111111111111110111011111100000
11111111111111110101111011100011
11111111111111101011011110110110
11111111111110110110111111100110
11111111111100110011110110101100
11111111111010111011101011010100
11111111111010011111100110110100
11111111111010010001101010000000
11111111111100000110111000000001
11111111111101101000111011001111
11111111111111010011110011100110
11111111111111110110011000001011
11111111111111111110110101110111
11111111111111110110011000011010
11111111111111100001100000111001
11111111111111001010111101100011
11111111111110011011010100001100
11111111111110000101111111111001
11111111111110001001110000010000
11111111111110011010100110100110
11111111111110101000101000100101
11111111111111000011010011000111
11111111111111011010001001000111
11111111111111111001101101101111
11111111111111111110010101100001
11111111111111110011110001000011
11111111111111000000100010100011
11111111111101111001011011110010
11111111111101011011110001111010
11111111111101001010111000010010
11111111111101100101101100001110
11111111111110111001011000010101
11111111111111101111010100011100
11111111111111111101011111010100
11111111111111000101000000010100
11111111111111000000011001101110
11111111111111100110011000111001
11111111111111101010000100000100
11111111111110111101000100011100
11111111111101000010100111011000
11111111111011110011001000000111
11111111111100111111101001101011
11111111111110001000100101101010
11111111111111100001010101010010
00000000000001111100100111101010
00000000000010010101101001001110
00000000000010001110010101010101
00000000000001001000101101100101
11111111111110100010110100000100
11111111111111011010110011100110
11111111111111001100100000110000
11111111111101111100000100001111
11111111111100111011100110100111
11111111111110000100100000110111
11111111111110111111100111101001
00000000000001101001100001001110
00000000000110000000100011000000
00000000000100010000111100001000
00000000000011100110011110001100
00000000000010110000001110000110
11111111111110110001010101011001
11111111111111110011101100100011
11111111111111010101101011001110
11111111111101110000111010001000
11111111111100011010011100101001
11111111111110011011110100100010
11111111111111000111111010110011
00000000000001011101010111100011
00000000000111111001100000000010
00000000000110101100010101101100
00000000000100001111000100001110
00000000000011101011001101111101
11111111111111100001111001100101
00000000000000011011110010010101
00000000000000110110011010011000
11111111111101101100100001110110
11111111111100000011110001010010
11111111111100010101111011101111
11111111111110111111101000000011
11111111111110110010100110001111
00000000000011111001101011011010
00000000000101111100001011100101
00000000000011111101101110101100
00000000000011000010110100001110
11111111111111111000100000001001
00000000000000010000111001100010
00000000000010011000001111111011
11111111111110111000111100011101
11111111111110101100010011111010
11111111111100000110110000000010
11111111111100000011111001111111
11111111111100000011100011000011
11111111111110111011011111110011
00000000000001100010110110111101
00000000000010011111110111010011
00000000000010000000100101101011
11111111111111110010011001111011
11111111111111111011110101001010
00000000000010111000101001100101
00000000000000000110000011000111
00000000000000011111010111001010
11111111111110001011101000011110
11111111111000101101000111111100
11111111111011011000110011000001
11111111111011100101000001100000
11111111111110110001101111111011
11111111111111110100111001111101
00000000000000110010101011001011
11111111111111100100001010110010
11111111111111010010001101010100
00000000000010101100010100100100
00000000000000111001010100001100
00000000000001100000011111110001
00000000000010000000100000110110
11111111111011101001011011111111
11111111111011111101110001110111
11111111111100001101100100110101
11111111111100011011101100010101
11111111111101111000101110110000
11111111111111010100001000111010
11111111111111011110111000100100
11111111111111000101001001011001
00000000000001110110010110010001
00000000000001101100001111110001
00000000000001110011100001000010
00000000000100100101100110011101
00000000000000010110100100001000
11111111111100000001010011001000
11111111111011101100011110110010
11111111111010100011001011111001
11111111111110001010110101100011
11111111111111010000111001100111
11111111111111100100110000010000
11111111111111101000010100001101
00000000000000100111100011000000
00000000000001111011011010111011
00000000000100001010010010000100
00000000000110011011101110101100
00000000000100011111010101100110
11111111111111101001010111100111
11111111111101010110000011000100
11111111111011001101010011010001
11111111111110000001100110101111
11111111111111100000001011011010
11111111111111101011110100101111
11111111111111111000010101011101
11111111111111010000110111000111
11111111111110101010010010010000
11111111111110010111001010001100
11111111111110001110000001010110
11111111111110001011001111011011
11111111111101000011011111100000
11111111111101100110100011001100
11111111111100110010110100000010
11111111111101110110010110111001
11111111111111100011010011100011
11111111111111111000101010001110
11111111111111111110010111000010
11111111111111110111011000101010
11111111111111100101011010000111
11111111111111000010010011111010
11111111111110010101111001111101
11111111111110000000001100100100
11111111111101011000001001100000
11111111111100111001001011011111
11111111111100100110000110111111
11111111111101011001110000001111
11111111111110100110000100110010
11111111111111101101110100101101
11111111111111111010110100010111
11111111111111100101110001110000
11111111111110101111000110000010
11111111111101100100001001110110
11111111111101001011001111110110
11111111111110001000111000110010
11111111111111001010110010110010
11111111111110011110100111000101
11111111111101111000101101001110
11111111111110000001110111100111
11111111111110010011010011001110
11111111111111010100100101111000
11111111111111111010111110010101
11111111111111010111110010011000
11111111111110000101100000100111
11111111111101001011101010100010
11111111111110000100101011001101
11111111111110011010101100100111
11111111111101111101101100111100
11111111111110011101010001100110
11111111111111111100100011001000
11111111111111110110100001111101
11111111111111001000111111000110
11111111111110100100010101111111
11111111111111110101001101000110
11111111111111010101111010011100
11111111111111001100010001010111
11111111111111000111101100011010
11111111111110010100111111101110
11111111111110101000111100010001
11111111111111011110100100001101
00000000000001010011010000001000
11111111111111110101111100101101
11111111111110100110100101000111
11111111111110010000000101000000
11111111111110001111110110010010
11111111111111110100101001011110
11111111111111011101110000001111
00000000000000000011100000000010
11111111111110111110101010110111
11111111111111011110111001000001
11111111111111000001110111110000
11111111111110000111100010101001
11111111111110011111000000111000
11111111111110001111100010011100
11111111111110011111111011011111
11111111111111011000000101111010
11111111111111001101100101100100
00000000000000000000010001110101
00000000000000001011100110011100
00000000000000110001010011110011
00000000000000001010010010010101
11111111111111001000000110110101
11111111111101010110110001111010
11111111111010101001010011010011
11111111111001011011100101000011
11111111111100100000001001001101
11111111111110010100010101010101
00000000000000010011011010000110
11111111111111111110110101000101
00000000000000000100010111000010
00000000000000101001101011101101
00000000000001010011110010001100
00000000000000101110101111011111
11111111111110011010101010111011
11111111111010010100010101111100
11111111110111000001111101010010
11111111111001100010010010010101
11111111111101111011110110010100
11111111111111100101000101100100
00000000000000100011000001101110
00000000000000000101001110111100
00000000000000000010000001110110
00000000000000111100001101101101
00000000000000110010010001011101
11111111111111011100001000101001
11111111111101011010010101000110
11111111111000110001110110010100
11111111111001000100110101100001
11111111111101011001010001100010
11111111111111110011100000001011
11111111111111101000100110011011
11111111111111111111011110001111
11111111111111111111010110101010
11111111111111101111100001101000
00000000000000110100110111111010
00000000000000011010101111011000
00000000000000100001000001100111
00000000000000001010101010110111
11111111111101010111001110011101
11111111111110000111101111101110
00000000000000101100000011101011
11111111111111011001111110010000
11111111111111100111101010110010
00000000000000010101111000001010
11111111111111110011111110101110
11111111111111101010110001111010
00000000000000100110101010011100
00000000000000011001101001111001
00000000000000010100000000001111
00000000000000001110100000100011
11111111111110000111101100101011
11111111111101110011101011100110
11111111111110010010011101011000
11111111111110010101011011011000
11111111111111111110010001110101
11111111111111111111111100110011
11111111111111101001111011000110
11111111111111101110101111000001
00000000000000001100110110100000
00000000000000110111011001111001
00000000000001101110001000110001
00000000000010111011111111000110
00000000000010111001101101101010
00000000000011001011100000111001
00000000000001001001100010000110
11111111111111000100000101111000
11111111111110111010000000110011
11111111111111010011101000000111
11111111111111110010000000011100
11111111111111111010010101101001
11111111111111100110000100000000
11111111111110111110101011101100
11111111111101110111101000101000
11111111111100111001011000111011
11111111111100110000000100011011
11111111111101001111101111101111
11111111111101111100000010111011
11111111111110001110010100110110
11111111111111000001000010000000
11111111111111101101111100110100
11111111111111111101110110001011
11111111111111110110111010011111
11111111111111011000110010001111
11111111111110101010001000001111
11111111111101101111111111001011
11111111111100011011010101000111
11111111111100000000000011110101
11111111111011000101111110010010
11111111111010100010100001011011
11111111111010110101001110001100
11111111111100101001001000110011
11111111111110100000000100100100
11111111111111110100001011100000
11111111111111111010101001101001
11111111111111010100110100100010
11111111111101101110011001011110
11111111111101111110101001011100
11111111111111001100111000010010
00000000000001110110011000100010
00000000000101110001101011010000
00000000000101010111110101000010
00000000000010100110011011010111
00000000000000101101101010000110
00000000000000101101011000001110
11111111111110110101011000101111
11111111111111101000001011101100
11111111111111001000110101001010
11111111111110000101110000001111
11111111111100001011001110110101
11111111111100100111000011100001
00000000000000001111000001101111
00000000000101000100110100101011
00000000000111011010000011101111
00000000000100110111010010111110
00000000000100001101001000100110
00000000000100111010110010010100
00000000000000000100101010111000
11111111111111110011101110001001
11111111111110111111110101111010
11111111111110100100111010111100
11111111111100011001001111010010
11111111111101000111101100110111
11111111111110010001011001111011
11111111111111101111011001011111
00000000000110100110001100010110
00000000000110010010111010111000
00000000000001110011101001000010
00000000000010010110101001101100
00000000000000011101111011011000
00000000000000000011011110110000
00000000000000000000110001011100
11111111111110110001101011110100
11111111111100001111011100001101
11111111111100001110111010111010
11111111111011111100000000111111
11111111111001001100010101010010
11111111111111011010100110100000
00000000000010011100100101010001
00000000000001010101000011100000
00000000000001101101001010000010
00000000000000100011100101000110
00000000000000000000001001111001
00000000000000001100001000111100
00000000000000010011000110100001
11111111111110001111011010111001
11111111111011010011001000101010
11111111111010111010010111011011
11111111111010000011011101111010
11111111110111011101011000010111
11111111111101000001110100001100
11111111111101110111110111111111
00000000000000111111010000110111
00000000000001100101110110110001
11111111111111101100101101111100
11111111111111000000101011111000
11111111111110001111100010110010
11111111111110000110101101111001
11111111111111101010000000000111
11111111111010101100001001111111
11111111111010011010011010101001
11111111111001001111101110001010
11111111111010000000101100000100
11111111111100010111101000110111
11111111111111110101010001101111
00000000000000111011110000101101
11111111111111000100001011110010
11111111111101010001011101111010
11111111111101000001101011011111
11111111111110000110100110111001
00000000000000110111011111100010
11111111111011100100010101001110
11111111111000101111111011001100
11111111111001011010001000000101
11111111111001000011101110011110
11111111111011100100010011001001
11111111111110101010111101001000
11111111111111111001000000110101
11111111111111000000010111111101
11111111111100010101101001010001
00000000000000000111000011111001
00000000000011000000110100001110
00000000000110001001111101110101
00000000000010010100111101101100
11111111111100001001111101001110
11111111111101001010111110110010
11111111111011001001011101000010
11111111111100000110011111010100
11111111111110101010010010101010
00000000000000000110000000001000
11111111111111101110000111101111
11111111111101111010001000101110
11111111111110010111110000101011
11111111111111110110101011111100
00000000000101001111101110101100
00000000000011001110011110001111
11111111111101001110011011101010
11111111111100011000011010011111
11111111111010010100101000111110
11111111111100010000000000111101
11111111111111001101111100110100
11111111111111100110100011101001
11111111111111110010111000001110
11111111111111100000100001111110
11111111111111110001001111010001
00000000000000110010100100000110
00000000000100001101010000001011
00000000000011100100001100101011
00000000000000000000100101011000
11111111111101101001101111010001
11111111111010111000010010101011
11111111111011101101001110010010
11111111111110101100001111010100
11111111111111100111000110011000
11111111111111111101000000010011
11111111111111110111100011001011
11111111111111010111011110010000
11111111111111010001111000111100
11111111111110111100110110011110
11111111111110010001101011011100
11111111111101001110001110000111
11111111111101100111000111110001
11111111111101101001100001110110
11111111111101110011000011101101
11111111111111000001011110100101
11111111111111110110011001110101
00000000000000000001111010001100
00000000000000000000110101000111
11111111111111111110111010101010
11111111111111111001111010101001
00000000000000001110101101110010
00000000000001010011001010010110
00000000000011000110011011001011
00000000000010000000000000011110
11111111111110010100011001111000
11111111111111100011101000011110
00000000000000101010110010011010
11111111111111111110111011011110
00000000000000000010000110100000
11111111111111111111110001110110
11111111111111101100001111101000
11111111111110110011111001100011
11111111111111010100100011100100
00000000000011010111001101100101
00000000001000111111011111011001
00000000000110000110000110001101
00000000000010010100100100011110
00000000000011000100111110010000
00000000000011001000010010010011
00000000000000101010111001101001
00000000000000000011010111110110
11111111111111110000001100001111
11111111111111011100011100000110
11111111111101001000000001000110
11111111111101000010111001110010
11111111111111010010011001110001
00000000000011101101101001011111
00000000000001110101101100101111
11111111111111000010110001010010
00000000000001110011010111100001
00000000000010100101010001010111
00000000000000001101111011101010
00000000000000000000100101001001
11111111111111110111111100110101
11111111111111100110010001011011
11111111111101010110100110110000
11111111111100101111011111010011
11111111111011000100010100100110
11111111111111001100100111001110
11111111111110000000000000000000
11111111111101100011101110111100
11111111111111010001110101111011
00000000000000101100011011000111
11111111111111000010000101011101
11111111111111111101100111111101
00000000000000001111000101010110
11111111111111111111001100001011
11111111111110101000111111001000
11111111111011111010010101000001
11111111111010010111010100010111
00000000000000011111000000000100
11111111111111001110111001000010
11111111111101101001101110110101
11111111111110111000100011101101
11111111111111010011001101111000
11111111111111101100011001011101
11111111111111111101101000110001
00000000000000010101011011011000
11111111111111111100111100101111
11111111111101101110110101100001
11111111111111101101000010100110
11111111111100000000010110010101
00000000000101001001110011010110
00000000000010000101001100100000
11111111111100000110011101101100
11111111111110010111010111110110
11111111111111111111000101000110
00000000000000001010100000000100
00000000000000000101110011110001
00000000000000000100000110011010
11111111111111101011110011100011
11111111111110000110000010010000
00000000000001000010011111101110
00000000000001000010011000101110
00000000001010000100101011100111
00000000000000010011000000110001
11111111111010001101101001101001
11111111111111111010010111001111
00000000000001010101011100100100
11111111111111110010100111110010
00000000000000000010001111101101
11111111111111111001111000101001
11111111111111010010110000000110
11111111111110101011010001001111
00000000000000011101001000101100
00000000000010001000100100110110
00000000001000011101000100101011
11111111111100000010111111000101
11111111111011001101100110010110
00000000000010000101100011010010
00000000000000110010110011010100
11111111111111110101100110101011
11111111111111111110001011011000
00000000000000000100100111101001
11111111111110111110010111111101
11111111111111010000101100111100
11111111111110011100010100001000
00000000000010000001111000001100
11111111111100100111110100101011
11111111110110110000000011100111
11111111111111110000111010110111
00000000000010001111100111110100
11111111111111100111111100010110
11111111111111111010010111011001
00000000000000000000011001001011
00000000000000001001010011111111
00000000000001100100111111111101
00000000000001111000100111100010
00000000000010110010111011001111
11111111111100111101100010111110
11111111110101001111010101010010
11111111111001101110110101001000
00000000000001001111011110100111
11111111111111000011111000111000
11111111111110011011110111011100
11111111111111100110101100111101
00000000000000000010110100100100
00000000000000110101001100000110
00000000000011011001100000001001
00000000000100100000001011111000
00000000000010111101101000010101
11111111111011101110001111110111
11111111111100101000000000001101
11111111111110111110010011110100
00000000000001010010000011100010
11111111111111001011101011000000
11111111111111010101110111110101
00000000000000000001101001000100
00000000000000000011010111100010
00000000000000101100110000111101
00000000000001010000000010011010
00000000000000011010110101010100
11111111111110010001110010011100
11111111111100110001001000000000
11111111111111100000100001000101
11111111111110000100000001001111
00000000000000000000001101111110
11111111111111111011101100111000
00000000000000010001001100001001
00000000000000000110010100010101
11111111111111111111011111010111
00000000000000000010101111010001
11111111111111001110001001010100
11111111111111010110001001001101
11111111111111111100110000110011
00000000000000100010111001100011
11111111111111110111001101110101
11111111111111111100000110001010
00000000000000010010110010011000
00000000000000001111100111101100
00000000000000000001011100011111
11111111111111111111111110000010
00000000000000000000100110001001
11111111111111101111000101111001
11111111111101111011111110110010
11111111111111011101111101101100
00000000000010010101101111001101
00000000000001111111110101100110
00000000000011111100101010001101
00000000000100011110100000100101
00000000000011011111100010010111
00000000000001110110110010011110
00000000000000010110111000010100
11111111111111110011110011110100
11111111111111110000101010000111
11111111111111001100000000011101
11111111111100101101101111000001
11111111111110110010010101010101
00000000000001111101110111011110
00000000000010000011111100100111
00000000000101000101111000100011
00000000000110011010010001010100
00000000000011011101110110110110
00000000000001000110100001010010
11111111111111110111010001010100
11111111111111100000001111001010
11111111111111110111110000110101
11111111111111001000111001111010
11111111111100111000010101000100
11111111111111001101100101000100
00000000000000010100101110110110
00000000000001110100100001111110
00000000000101010000100011100110
00000000000100110010111111111101
00000000000000111110010100101011
11111111111111001101001011110100
11111111111110101100010111001011
11111111111111001110111111000101
00000000000000001110001111111101
11111111111111100101110101100000
11111111111101010010100111101010
11111111111110111111101111000001
00000000000001010010011100110111
00000000000101010010010111011000
00000000000110111101010010100110
00000000000001010101110011101100
11111111111111001101011001010100
11111111111110111100111000100100
11111111111111001010101111011000
11111111111111110100010000011101
00000000000000011111100110100000
11111111111111100001100111111100
11111111111100111111010100110011
11111111111110011001010111011111
00000000000010000011000000110100
00000000001001001010000111001111
00000000000011111011101010101000
11111111111111011101010010111111
11111111111111010100011110101011
11111111111111101000101100011011
11111111111111111010001000100000
00000000000000001001010001011100
00000000000001000001100111100011
11111111111111001111011011000101
11111111111100100100111101101100
11111111111111011000100010100111
00000000000011010000000100000000
00000000001100001110010110101010
00000000000010100000111001000011
11111111111110101010011000010001
00000000000000000000011011011101
11111111111111100111100010011110
11111111111111110110001001110111
00000000000000000100110100100110
00000000000000111001010011001100
11111111111110110101011011110111
11111111111100100011010111110011
11111111111110111110111100000010
00000000000011110000011111110110
00000000001100110111111101001011
00000000000100111011100000000001
11111111111110010000110001101010
11111111111111111000000101000001
11111111111111100101011100011011
11111111111111111101111001000110
00000000000000000110001100010010
00000000000001000001100110100011
11111111111111010100100000000111
11111111111110000010000000100010
11111111111111000000001010100001
00000000000000100000110010111000
00000000001010001111100101111101
00000000000011100001100000111001
11111111111110011011110011110111
11111111111111011011110000111110
11111111111111101011001001011101
11111111111111110100000110111001
00000000000000000010010111111110
00000000000001011010110111101011
00000000000001110100110010001001
11111111111111111010110110001110
11111111111111101001001110111010
00000000000000011001111010111101
00000000000101100011100001001000
00000000000011011100001111110000
00000000000000001100111000110110
11111111111111001001000011111110
11111111111111000100100000000001
11111111111111101010000101001010
00000000000000000100100011010011
00000000000001001001100010110011
00000000000010101101011100001001
00000000000000110111100111100011
00000000000001101101110011111110
00000000000011100100010001000101
00000000000100100101000111001010
00000000000010010110000011101101
00000000000001111101110110010001
00000000000000001011010011001101
11111111111111011100001100100011
11111111111111110111010011001010
00000000000000000111101100100001
00000000000000011110000100001110
00000000000001000010101110101100
11111111111111011000111011100011
11111111111110011010100101101111
11111111111110011100100001011100
11111111111110100011010110110011
11111111111101111011001111100001
00000000000000001000100101010011
00000000000000010100110101010001
00000000000000001110100010111111
00000000000000000000111001101101
00000000000000000101101100111000
00000000000000000010000011001011
11111111111111111111111000100111
11111111111111110100001111011010
11111111111111100011110111011111
11111111111111001101111100001010
11111111111110111011101011110111
11111111111111100000100111000100
11111111111111111011001010101110
11111111111111101111101100101011
11111111111111111001101110010100
11111111111111111001100000001100
11111111111111111111100000110000
00000000000000000000110011111000
11111111111111101110010000101111
11111111111110011011100110011111
11111111111011011100110101100000
11111111110111011111010111000000
11111111110101001001101000010110
11111111110111111000100101010100
11111111111010010011000111011011
11111111111100001110111111101010
11111111111101110000001001100111
11111111111110010000111101010011
11111111111110111011100101110011
11111111111111101110011101111011
11111111111111000011111100110110
11111111111101010111010101101011
11111111111011001010010001000100
11111111111000010011000010001111
11111111110110011000000010010100
11111111110110100111110110000010
11111111110110111010000100011001
11111111110111110101101000111111
11111111111011110100110101101100
11111111111110101110000100010101
11111111111111010111110111010000
11111111111111101100011110000101
11111111111110110001101010111011
11111111111101100110110111111101
11111111111100110100111000010010
11111111111011000001100100110011
11111111110111101010010010111001
11111111111000110001110101100111
11111111111001101111100010010010
11111111111001101110000001101000
11111111111011110011011100010001
11111111111101110000001000000100
11111111111110100000011010110001
00000000000000000111001111001100
11111111111111100100001011111010
11111111111110110001101010111110
11111111111111010100111001111010
11111111111110001110010011100111
11111111111100111010110011001100
11111111111100101000010110011101
11111111111011001011110110101011
11111111111011001000000010011000
11111111111101011011101001111011
11111111111110000100000000110101
11111111111111000101001011110000
11111111111111110110001101100011
11111111111111011010011000111001
11111111111111010100110001100110
00000000000000001011011010000011
11111111111110110001000010101101
11111111111101111100110101010100
11111111111110100011101100001100
11111111111101100111011000111111
11111111111011111110001101110100
11111111111101110001000110100100
11111111111110010111110001111101
11111111111111100011100101110000
00000000000000000100010001011100
11111111111111011000000100100110
11111111111110101100001111100110
11111111111111000111001011100010
11111111111101010111100110101000
11111111111100000111101111001111
11111111111110000001000110000011
11111111111100100111000101111000
11111111111010010001001010100011
11111111111100010011111111101010
11111111111110001101001010111101
11111111111111001001000010100010
00000000000000010001111000110000
11111111111111000101110000101010
11111111111101111110111100100010
11111111111101010101100111010111
11111111111100010111000111110101
11111111111011001101000101100001
11111111111100111110111001101110
11111111111100100001111011000111
11111111111011100101011100100001
11111111111110001110001001101101
11111111111111000101010001011010
11111111111111000100110000100000
11111111111111111111100110100110
11111111111111001101010001101010
11111111111110110000001101010000
11111111111101100011100101011111
11111111111100000010010010010010
11111111111011101001011000010010
11111111111011100110111000011011
11111111111100101101001111011010
11111111111110100110010110010110
00000000000000000110011011000001
11111111111111010010000110010111
11111111111111100000011110110011
00000000000000100100001101110110
00000000000001000011100111000000
00000000000001010101000100000111
00000000000000110001110010111111
11111111111110101011111100110000
11111111111100101001110101000001
11111111111101011101111101000100
00000000000000000001001010100010
00000000000000000001111110010000
11111111111110010100101000111001
11111111111101111110011001000000
11111111111110111000110001110110
00000000000000111100001010101111
00000000000011000000010100000010
00000000000011011110110011111111
00000000000011101101100111011101
00000000000010001111101110111000
00000000000001001100110111001111
00000000000001111011011010111110
00000000000011100011010000001110
00000000000001010111111111100010
11111111111111000010000001011011
11111111111110100011011100001000
11111111111111100010101110000111
00000000000000011010101110001010
00000000000000100101110100001110
11111111111111101110011000011100
11111111111101110000001110011101
11111111111101110101010100101001
11111111111111000010010101100000
11111111111111101110111111010011
11111111111110110100010101011110
11111111111111001001000110100100
11111111111111111010000101100011
00000000000000001111101111111100
00000000000000000110110000011000
00000000000000000000111011010101
00000000000000000001110011101010
11111111111111110101101011011101
11111111111111100101101100111101
11111111111110101001111101101001
11111111111110010000111100101001
11111111111110000100100000101001
11111111111110010101000010010011
11111111111110010010101100110100
11111111111111010010100101100010
11111111111111110011000111100111
11111111111111111010001111110100
00000000000000000000111010100100
11111111111111110101101110011111
11111111111111001111111001001101
11111111111110010110111010110010
11111111111110011011011110101000
11111111111111111010011011010010
00000000000000011100010100010111
11111111111111101001101010101010
00000000000000011101101001100000
00000000000001100011001001111111
00000000000001000011100110100111
11111111111111111010001111010101
11111111111111111000011001111101
11111111111111011101011111101101
11111111111110001011111011011001
11111111111101101110110100011100
11111111111111000111110101110000
11111111111111100111011011011011
11111111111100111110101110111110
11111111111101000001111110010000
11111111111111101111101001000011
00000000000000110100101100110000
11111111111111111111110100101000
11111111111111100001000110001010
11111111111111111010111010001101
11111111111111011111011111001111
11111111111110101110010000001111
11111111111101100010101000010011
11111111111110000011111010101001
11111111111110011001101011001011
11111111111101010110010101000011
11111111111110001110010010111100
11111111111110100110101101101100
11111111111110011000111101111111
11111111111110001111001010111111
11111111111110101111010000011101
00000000000000000100100010110000
00000000000000000000101000001111
11111111111111001100001010001011
11111111111110001110010010010010
11111111111111001001100101000010
00000000000011000111100101000000
00000000000100100011100101011000
00000000000000011010110011111001
11111111111110001001100110111110
11111111111101101100001011110101
11111111111110101111100110011111
11111111111111100010111100011010
00000000000000001011010100010000
00000000000000000011100011011100
11111111111111001110001011010111
11111111111110111111000011111100
11111111111111100001110101000110
00000000000101110100000001110111
00000000000100011111000111011111
11111111111101011101100010000101
11111111111100010111100000101101
11111111111110011100100011111010
11111111111111010011011001100100
11111111111111110110101011001010
00000000000000010111001001110011
00000000000000000011011000010101
11111111111111001101001001011111
11111111111111000001000001001011
00000000000001100010100100010110
00000000000100101111001011100010
00000000000010010000110100110010
11111111111010110101100000101101
11111111111100101001001111111101
11111111111110111010111001000000
11111111111111011001000101000100
11111111111111101101111011011000
00000000000000001011100010001101
11111111111111101100110111011000
11111111111110100110000011010001
11111111111111001010011101110111
00000000000000010011111000011001
00000000000001110011011011011101
11111111111111100011001100010001
11111111111100000011010110111100
11111111111101101110011111001010
11111111111111111001111111100110
11111111111111110001001100110001
11111111111111110000110011000010
00000000000000001011011011010111
11111111111111100110110011001111
11111111111111100000010010000110
00000000000000110110001101001100
00000000000000000001010011000000
00000000000010100010101110010011
00000000000000000010000000100101
11111111111101011111001100011001
11111111111111111111011001010010
00000000000000000010111001011011
11111111111111010011001001111100
11111111111111110111110101110100
00000000000000011000101000111011
00000000000000110001111111100101
00000000000001100000010001111100
00000000000010011010111011101000
00000000000001110110001101010001
00000000000001001001000101111101
11111111111101111111111001001111
11111111111110010010110110101011
11111111111111010110011111111000
11111111111110001110010111101010
11111111111110100001111010000000
11111111111111011010001100110011
00000000000000010000001000011101
00000000000001001000110100110001
00000000000001011110111101000000
00000000000001010001111101000100
00000000000000001001101101001011
11111111111110000100011100100101
11111111111110000010101111001110
11111111111110101001010101010110
11111111111111100000011111100001
11111111111110111101110111001100
11111111111111100011000101101111
11111111111111111111111101001011
00000000000000000100101111001101
00000000000000001010001000000101
11111111111111101001001111110100
11111111111110011010010100010011
11111111111101001010001100011011
11111111111101010111100110111001
11111111111110010011111000010100
11111111111111000010001100010101
11111111111111101101100000101000
00000000000000000001111010010100
00000000000000001001000001011011
00000000000000000010110101010000
00000000000000000001100100111101
00000000000000000001010110010011
00000000000000000000110101011010
11111111111111100101100011111010
11111111111111010010000000000011
00000000000000010101001000111000
00000000000001010111110111100100
11111111111111101000000101011000
11111111111110100011101000001100
00000000000000000101110100011111
00000000000000011000101111000110
11111111111111110101110001111101
00000000000000000011010110111111
11111111111111110000100010011010
11111111111111100010111000101000
11111111111100100000011110010011
11111111111110001110110001110011
00000000000001000110100111110100
00000000000011001111001000110101
00000000000010000010110011010000
00000000000010101001010000001010
00000000000010110110011011111011
00000000000001111000011100000100
00000000000000000001101110101000
11111111111111111001001011101100
11111111111111110000110010101010
11111111111110001011100110100110
11111111111011010100111101011011
11111111111110001111001100100010
11111111111101110101001011100011
11111111111001110001000111110010
11111111111110010001101101110011
00000000000010111000000011101010
00000000000010010111101011111111
00000000000001000011000101111100
11111111111111010110110010001010
11111111111111110010000110111111
11111111111111010110111101100000
11111111111110110100010011000000
11111111111100111100011010110100
11111111111100000110101101110001
11111111111000010110110000100011
11111111111001010011001011111010
11111111111110001110011000111110
11111111111110000111011010100101
11111111111110111001100000111101
11111111111110011011011101010000
11111111111110111110101101000100
11111111111111111111111110011000
00000000000000000010111101111001
11111111111111010000110000011000
11111111111101000111010111001011
11111111111110001111111010011011
11111111111101011100011010001101
00000000000000101001000110100110
11111111111010101110110010101101
11111111111010110101101000001011
11111111111101011011010100000101
11111111111110111111101101001011
11111111111111101100000101101001
00000000000000000101000010111111
00000000000000011000101110110111
11111111111110110101010110100101
11111111111110101110110100101000
11111111111111100010101110111010
00000000000101011111101010101111
00000000000010011100010010101101
11111111110111100010010001111010
11111111111010100100000110100110
11111111111110101111111111010010
11111111111111011011111100110011
11111111111111111011000101110101
00000000000000001011100010011100
00000000000000100011010110010011
11111111111110011101111001010111
11111111111111011110110000000110
00000000000001101100100011111100
00000000000101100010001010101011
00000000000000100111011000010010
11111111110111110110110111001000
11111111111100111010111011110111
11111111111111101111001111001010
11111111111111100101100000011011
11111111111111101001110100111001
00000000000000001100000011010111
00000000000000010011001110000101
11111111111101100011001010011111
11111111111110111100111101111111
11111111111110001010111111110000
11111111111110111100101100101001
11111111111011111100010111111101
11111111111010001000011101100010
11111111111110110111111101110111
00000000000000110111000110110111
11111111111111001011001010010001
11111111111111111001010000001101
00000000000000001101010110111100
11111111111111100100000110111101
11111111111111000011000110011001
11111111111111011111001001010100
11111111111011100011111011110001
11111111111101001110111100000010
11111111111001011111101110101000
11111111111010110100001110110101
00000000000000110111000010100111
00000000000000000010001110010100
11111111111110100010010110110010
11111111111111101100110110100000
00000000000000011001001000001000
00000000000001011000011100000000
00000000000010101011110110011010
00000000000001000111010101010100
11111111111110010101100100001100
11111111111011100001100011111101
11111111111000100001000001111101
11111111111010111011000000001101
11111111111110101011001101001000
11111111111101110010111111010110
11111111111110001110100000011000
11111111111111100101101001001111
00000000000000010111000110000110
00000000000010001111001110001100
00000000000010100001010000101001
00000000000010000000011111111011
11111111111111011110100010101011
11111111111100101001110011100110
11111111111101001111000110001100
11111111111101000111011100100101
11111111111111001000001000100011
11111111111110110101010011001111
11111111111111110001110010001011
00000000000000001001010110100000
00000000000000010000101001001110
00000000000000110010011110101010
11111111111111110111000101010110
11111111111111100000010011000100
11111111111101110010000100000111
11111111111110110101101111011111
11111111111110110010011111111011
11111111111111011011000010000011
11111111111111110111110100000011
00000000000000001000010101100100
00000000000000000101100010000111
00000000000000000101010111111000
11111111111111111111111111000010
11111111111111111111101011010100
11111111111111100110001101010100
11111111111111001110010110101000
11111111111111010110001000001111
11111111111111001111000111111100
11111111111111000001100001100100
11111111111111100001110000010011
11111111111111111100110000000001
00000000000000000011111001100001
00000000000000000000010001110000
11111111111111111111001101110011
00000000000000000000101101011011
11111111111111101101000010101001
11111111111110100100000110000100
11111111111110100101001101111011
00000000000000010100001010110001
11111111111110110000100000010000
11111111111110110100110000101111
11111111111110100111011001000010
00000000000000000111001100100010
00000000000000011100000011010110
11111111111111110100010000000110
11111111111111101001110010111011
11111111111111101111000101110001
11111111111111001111011100101011
11111111111101110001011110100110
11111111111101011001000110001010
00000000000000001000110001010111
11111111111110100111001011110111
11111111111100010010110101001010
11111111111010001110101110001110
11111111111010110111001101000000
11111111111110011100011110100111
11111111111111001111110000100001
11111111111111011011101111100000
11111111111111110111110010101010
11111111111111000101100111111011
11111111111101101101101000011011
11111111111100101010011001001110
11111111111110110111000100110001
11111111111111001101001000100110
11111111111100111101001001010100
11111111111001110011000101100110
11111111111011000100001011010010
11111111111110010000110101110000
11111111111110011100010000001100
11111111111111001000111010110001
00000000000000000101100100010100
11111111111111111010110100101010
11111111111110011110010010100011
11111111111100111000100011011000
11111111111111010110001000001010
00000000000000101011100000001011
00000000000000010000000010100100
11111111111100111101101111011111
11111111111101011010000101101011
11111111111110110011011100101110
11111111111110111010101111101110
11111111111111101110011010100100
00000000000000000101101000000101
00000000000000000010010001011111
11111111111110101101101111101010
11111111111101000010111010010010
11111111111100011101100101001111
00000000000000000001101000101000
00000000000010111110101011110101
11111111111111000001010011000101
11111111111110110010111101000000
11111111111110111100111100000000
11111111111111010100011111000001
11111111111111111111111011111111
00000000000000010110001100110110
00000000000000000110111000111111
11111111111110001000110100110100
11111111111101111101010101000100
11111111111100011111110010011001
00000000000011011100101111101111
00000000000011000010111001010110
11111111111101001010011100000001
11111111111110111000110100110010
11111111111110101000011011110000
11111111111111000001000110011010
11111111111111111001000111110000
00000000000000001100000011111111
11111111111111110000101100011101
11111111111101001101001001110110
11111111111100110110000111100010
11111111111110000110100011001001
00000000000101000010011111011010
11111111111111110111011010100110
11111111111011100101110100111101
11111111111110011000111000001000
11111111111111101101011100110000
11111111111111011100000110000011
11111111111111110101010011010101
00000000000000010000010100011100
11111111111111011010001011001010
11111111111110000101110011111000
11111111111101110010110000001110
11111111111100001111110001001101
00000000000000010101101010010000
11111111111101110010000011110001
11111111111100001100000111011000
11111111111110011110011100001010
00000000000000001010111011011011
11111111111111100110011011010111
11111111111111111110000000101000
00000000000000101111010100000010
00000000000001000011110111101101
00000000000000010011011110011001
11111111111111110101110010100000
11111111111100100110011110111011
11111111111110110010111001101001
11111111111111101001001101010001
11111111111111100011111001100100
00000000000000001011011001011001
11111111111111100001111001101111
11111111111111000101101000010100
11111111111111111101000101100010
00000000000000000001101100101010
00000000000001111000111001110000
00000000000000110101010101010110
00000000000000000001110111111111
00000000000001001110001101100001
00000000000010010001011110000001
00000000000010100011110100011001
00000000000010111101010110001101
00000000000001101100100010111011
11111111111111110011001010011110
11111111111111010000111000000000
11111111111111111101110100011010
00000000000000000010100000100100
00000000000000001100111011001101
00000000000000001110111010010101
11111111111110110000001101010111
11111111111111000111101001011110
00000000000000010101010111110001
11111111111111101100110001011100
11111111111111011010011110001000
00000000000000011101110011111100
00000000000000011010000111010101
11111111111111111110111101011100
00000000000000000010101100110111
00000000000000000000100000100100
00000000000000000010001110001111
11111111111111111011011010100101
11111111111111100101111010111111
11111111111110101010100101010111
11111111111110001111011101111100
11111111111110010100110000001000
11111111111110111011011000001001
11111111111110110100010111011000
11111111111111010100111111101000
11111111111111110011010011000001
11111111111111111101100110111100
00000000000000000001000011110011
11111111111111110111100111110001
11111111111111010100101010010000
11111111111110000110000000101000
11111111111100111011100001000111
11111111111101100000100000011011
11111111111110000100001101100010
11111111111101101101100011100010
11111111111111001101100001001000
00000000000000101101000011110011
00000000000000101001110010110111
11111111111111111000110011001010
11111111111111111000011100101010
11111111111111100001101001010010
11111111111110100000010111111100
11111111111101110101111011000000
11111111111110010100100110011101
11111111111110100010101101010111
11111111111011100000101111110111
11111111111011011010100101010010
11111111111110001001101010110001
00000000000000001000111000001001
11111111111111110110111011110110
11111111111111101001110010100111
11111111111111111011001010101101
11111111111111011100100011011111
11111111111110110100100001011101
11111111111101111100111011011110
11111111111101101010011111001001
11111111111101010111011111000000
11111111111011111001010111100111
11111111111101000010101001111000
11111111111101101100000001111001
11111111111110000000101001111001
11111111111110011011000100010011
11111111111110110010001101110101
00000000000000000011100111110100
00000000000000000000001010110111
11111111111111011110000001000001
11111111111110100111000010100110
11111111111110111001010011000000
00000000000001101001011110110100
00000000000011010110010000111111
11111111111111110010110111011111
11111111111110010110001011110000
11111111111110000110111000001110
11111111111110110000111001001001
11111111111111011010011101100101
00000000000000000011101011111000
00000000000000000001101101010010
11111111111111100100010011001011
11111111111111010011111000001111
11111111111110010101001011100001
00000000000010111001001011110001
00000000000011111000011001011110
11111111111111000001001100111111
11111111111101000110110010110011
11111111111110010111000100100000
11111111111111001101100010001000
11111111111111110100101111101000
00000000000000001111010111010010
00000000000000000010001000101010
11111111111111010010101100001010
11111111111110111001011001100100
11111111111111001010110111001010
00000000000010100110111001100000
00000000000001010000111001001001
11111111111101000010111111110111
11111111111100101011101000011010
11111111111110110001110010110100
11111111111111010110000001101101
11111111111111101100011001010000
00000000000000000111110010001000
11111111111111101110110001010100
11111111111110110001000010111100
11111111111110100100000011001101
11111111111111011001110100101111
00000000000000000011100101011011
00000000000000001101110111101001
11111111111100110101001011100000
11111111111100111011000011011010
11111111111111101001001100010000
11111111111111110110101000111001
11111111111111101110000000000110
00000000000000000011000100100010
11111111111111100010100100111110
11111111111111011000011001111010
00000000000000010001111101011011
11111111111111011111001111101110
00000000000001001101011100010010
11111111111111110101001110101110
11111111111101011111000101001111
11111111111111100100100000101000
00000000000000010000011111001111
11111111111111100001010011110010
11111111111111111010111001011001
00000000000000010101001111110100
00000000000000100101010100100010
00000000000001011111000111110000
00000000000010000101111110000001
00000000000001011000101100100000
00000000000000001010011000001011
11111111111101111110111001011111
11111111111111001011000110000001
11111111111111111100011000001100
11111111111110110000001001000111
11111111111110101000000111000011
11111111111111011101000111100010
00000000000000010010011110101100
00000000000001000011000100111101
00000000000001010111010111000100
00000000000001001100101110011101
00000000000000001110000111111111
11111111111111011100100000110110
11111111111111111001100010000101
00000000000000100100010010001011
00000000000000011111100111010111
11111111111111010111000101001111
11111111111111011111110000000110
11111111111111111111111010100000
00000000000000000101001111010111
00000000000000000011011101001110
11111111111111101001000001011001
11111111111110011001000101100111
11111111111101011010010010010101
11111111111101010011111010010111
11111111111110011010110011010010
11111111111110110001001000110111
11111111111111100110001000011111
11111111111111111101000100100001
00000000000000001001100110111110
00000000000000000100000100001101
00000000000000000001100010010000
00000000000000000000000100000100
11111111111111101011011101010011
11111111111111000101101010001010
11111111111110111101101000011010
11111111111110111000100100001100
11111111111110110001011000110011
11111111111101010100011110110011
11111111111111010000000101011110
00000000000000001000101010100001
11111111111111111111111101000010
11111111111111110100110101110010
11111111111111111110110110001100
11111111111111110011001011000100
11111111111110111111010000011000
11111111111110110010100011011100
00000000000001011011100100011010
00000000000001000001110010110100
00000000000001101101001100001111
00000000000000100110101100011101
11111111111111001001010010001011
00000000000010000110100111001000
00000000000001100101010000110010
11111111111111101000110011100101
11111111111111110001101111001001
11111111111110111101010010110011
11111111111110000111110110011010
11111111111100010101010100011000
11111111111101110010111111101100
11111111111100111110011111100101
11111111111100011100101011100111
11111111111001111101000111110001
11111111111011100011110101110110
11111111111111001100000011010111
00000000000001001111010111011010
00000000000000000111111010100110
00000000000000000000111001010111
11111111111111010111010100110111
11111111111101100101100100100100
11111111111010111101000110101110
11111111111000111000001011101000
11111111111100000110100010011101
11111111111011011111011001000101
11111111110111110010001100101011
11111111111001011111100100011110
11111111111100101101001111000011
11111111111110100000111000100101
11111111111110111010001100011110
00000000000000000101000111000101
11111111111111110101110010001001
11111111111111000001011000011110
11111111111101011000000010011011
11111111111010010001010011110001
11111111111101101001100011010001
00000000000100000110000101100011
11111111111111111100101110110100
11111111111101111010111010010010
11111111111110001101101001111001
11111111111111000001000111101011
11111111111111100100011111000110
00000000000000000000101110000000
11111111111111111001111011001110
11111111111111011101000110110110
11111111111111001100101011100011
11111111111010110001000010010111
11111111111010100101011000000111
00000000000001110000101000001101
11111111111111011110110110100001
11111111111110000010010011011000
11111111111111100110000110111001
11111111111111101101001001111101
11111111111111101101010001010100
00000000000000001010111110100000
00000000000000010110011011011011
11111111111111000000100000011010
11111111111101101000100100101001
11111111111011101110001110101010
11111111111001110011101001011011
11111111111111000000011000010101
11111111111100111100000101100101
11111111111100010101001001100000
11111111111111111001010111100110
11111111111111011110000011100111
11111111111111011001101011010010
00000000000000000000010101110001
11111111111111010000001110111011
11111111111110001101110010100000
11111111111011100100100001011101
11111111111011000010010111101000
11111111111010011011010001000001
11111111111110000101000000001101
11111111111100100000000001110101
11111111111100001010110100100000
11111111111111001000100010111111
00000000000000001101100100011000
11111111111111110110000000100000
00000000000000000001000101010010
00000000000000001011011111111011
11111111111111100001000010110001
11111111111111001011010110010000
11111111111110001111011101101000
11111111111011001110100101101111
11111111111101100010111001100011
11111111111110000001100001101001
11111111111111101001010010111110
11111111111111110100011110101110
00000000000000001100001010000001
00000000000000001010001111111111
11111111111111111001011110101001
00000000000000101010111100111110
00000000000000000001101100101000
11111111111111110101110001111000
11111111111101000011110111001000
11111111111001111110011110101001
11111111111111110000110011001000
00000000000001000000001010110111
00000000000000011100110000001011
11111111111111011000111111101100
11111111111110001001001101011010
11111111111111000110011010101010
00000000000000000101100000111011
11111111111111011001100010100000
11111111111110101101101101011101
11111111111101001110111011011010
11111111111110001011101110010100
11111111111110101011010010001010
00000000000000100100111000001001
00000000000001101111010000000011
00000000000010110101101011100000
00000000000001000000001011111010
11111111111111101100100111000110
11111111111111101110100011100000
00000000000000001000011101011000
00000000000000000111101111010101
11111111111111110111111000100100
11111111111111110010010000101001
11111111111111111000110000100100
11111111111110110111111111001100
11111111111110100101000010000100
11111111111110001100010111110111
11111111111111011011101000000010
00000000000000000101100010011001
00000000000000001110001000001100
11111111111111111101011011101111
00000000000000000001010010101100
00000000000000000000010100110111
00000000000000000010111110001100
00000000000000000000001001101011
11111111111111010011011011011101
11111111111110110011000111110100
11111111111011011101000011110010
11111111111010100000100100011100
11111111111101010000100111001000
11111111111110100100011001000110
11111111111111111000111100100110
11111111111111011111010000001110
00000000000000000001101111110010
00000000000000000000101010101011
11111111111111100111001101000111
11111111111111001011111111001110
11111111111101101111000000110010
11111111111101100110111001110011
11111111111000101000101011111101
11111111111000001101100100110001
11111111111000101110111000011011
11111111111011001110100010111000
11111111111101111010011000111110
11111111111101001000111111110110
00000000000000000101100011110000
11111111111111111101011110110010
00000000000000101001000010011101
11111111111111000011101111111100
11111111111101110100011010101010
00000000000000011110001010111101
11111111111101100010010110101101
11111111111011010010111100010010
11111111111010101110011101110110
11111111111100010100100000100000
11111111111010110011010010010011
11111111111011111010101110001110
11111111111111111110000111010000
00000000000000011111000111111000
11111111111111111110100010001111
11111111111101101011001000010011
11111111111110100010010000011110
00000000000000011101101000001001
11111111111110110101100100111001
00000000000001010000111110010001
00000000000000110101110011111011
11111111111111010110010011100000
11111111111100001111000111000110
11111111111101011001010001110000
11111111111111111010100011100010
11111111111111000011101000100001
11111111111100100111010001111000
11111111111010100110100100000010
11111111111010011010000100000101
11111111111010001001111110111000
11111111111111011001100110101001
00000000000000010001101000101110
11111111111110100010001011101000
00000000000001100010011010100111
11111111111101111001001001110101
11111111111110010100000110011100
11111111111111110111000011111011
11111111111101100111000111000101
11111111110110010011110111110110
11111111110111010000101001110000
11111111110010110011010111011100
11111111111010010011010101101001
00000000000000100101000110001111
00000000000000110001011100001111
00000000000010100110110011001100
00000000000001111001111101001000
11111111111110001010110001100001
11111111111111101001110011011110
11111111111111110100110001001011
11111111111101111110101000100011
11111111111100010110010001110011
11111111111100011100000001010011
11111111111000100100000001101111
00000000000010110000010000100101
00000000000011100010100010001111
00000000000100101000001011100010
00000000000100001000011001111001
00000000000001101011000011001001
11111111111100010001010010101100
00000000000000001101110010011011
11111111111111111100010001110001
00000000000001010001100101001000
00000000000011110101000011101010
00000000000011000110001001100100
00000000000011010010100001010110
00000000000101110110010101101101
00000000000011100001000101010110
00000000000101011000111100101011
00000000000001010100011011010100
11111111111110101011101100101000
11111111111010000110110111011010
11111111111111110101110101001000
11111111111111110111111101000011
00000000000010101110011111100101
00000000000100110010111010111011
00000000000100010110011110001111
00000000000010101001111110110100
00000000000001011000000000000000
11111111111111100101100011101111
11111111111110101010100101100010
11111111111100101010011010110110
11111111111101101000100100110000
11111111111001111101100011010011
00000000000001000011101110111001
00000000000000000000101100000110
00000000000010111001001011110100
00000000000010101100001000111011
00000000000000100011111101111111
11111111111100010011010111000101
11111111111101001101110100000010
11111111111100101100110011101001
11111111111110000111010000100110
11111111111101101001011111000001
11111111111101100011110011001001
11111111111101101010000011010101
00000000000001001100011101100011
00000000000000010100100110001100
00000000000001101100000000001110
11111111111111101111110110011100
11111111111011011101101000001011
11111111110110101110010001100001
11111111111000100110001111101110
11111111111001110001101011000000
11111111111011111110110100100010
00000000000000000110011010001010
11111111111111000010100001000111
00000000000000000100110010000111
00000000000000000111010101111110
00000000000000000110111111101010
11111111111111010110111011001011
11111111111100111011001100011111
11111111111001100101011100101010
11111111110111110100110110010100
11111111111000011111111111000111
11111111110111100111101110000100
11111111111011011111110110100100
11111111111110110001011110101101
11111111111101101111101101000100
11111111111111000101101000001010
11111111111111110011111100110000
11111111111111101101111000010010
00000000000000000000101111110001
00000000000000001111100011010101
00000000000000001110111011110011
00000000000000001011011110111000
11111111111111010101011010000001
11111111111111001111010111000001
11111111111101101101011000111110
11111111111101000001000001000111
11111111111111000000111010111100
11111111111111111001111010110110
00000000000000000001111000011011
11111111111111010100101100010011
11111111111111011110011011000110
11111111111111110001100101111111
11111111111111010011101001110100
11111111111111010010100100101100
11111111111111001111110000001000
11111111111111000100011011110001
11111111111100111110010010001010
11111111111100011110101111011110
11111111111101111000100001110101
11111111111111001110101010000101
11111111111111110010100110101101
11111111111110100100101010111101
11111111111101101000001100001010
11111111111101011010001011110000
11111111111110000001111010101100
11111111111101110110001000110101
11111111111111010011010010100100
11111111111111001001010011000110
11111111111100110011110001111101
11111111111101111001100000010011
11111111111110100110000000010010
11111111111111000010101011101010
11111111111111101010110111010001
11111111111101101101100110110011
11111111111100010011010111011011
11111111111100111110100001110100
11111111111110001101010010001010
11111111111111000000100011111010
00000000000000010101001000101100
00000000000001101001111111011110
00000000000010110101001111000010
00000000000010010000100010010000
00000000000000100001010100011110
11111111111111100100011111110111
11111111111111101101001010001010
11111111111100011000110011000000
11111111111010101111110010011111
11111111111001110100101000000101
11111111111000011010101000000100
11111111111000010110000111111110
11111111111010010101100101010010
00000000000000010100010000011000
00000000000110100111011011000101
00000000000100111010000010000101
00000000000001000011001011111110
11111111111110111100101110100110
11111111111111110111010110000111
11111111111100000101100011000011
11111111110111000001111110110011
11111111110011010110011011010100
11111111110001000110000111100010
11111111110011011001101000100000
11111111110011010100111101011001
11111111111011110100000101101000
11111111111111101101110110001010
11111111111111111110111010111000
11111111111101011110110000011111
11111111111100110010101110001111
00000000000000000010001110000010
11111111111101111001110011001100
11111111111001000010100000011010
11111111110110101110101000000001
11111111110101011100111100101000
11111111110110000000000001000000
11111111110100100010101100011110
11111111111101001111101010101001
11111111111001101000011100101011
11111111111010100111101111010110
11111111111011010110101010101101
11111111111100111101000010010110
00000000000000110110010101101010
00000000000000111000001001010111
00000000000000010010111001000110
11111111111111100001001010000010
11111111111110011011001110101101
11111111111011110101110010001110
11111111111000100011100001001010
11111111111100010111110100001010
11111111111000110000011100010101
11111111111011010111101111000110
11111111111101110011101110010011
11111111111111101110000111000010
00000000000001101111010010111001
00000000000010100111000101100110
00000000000011111101011010101100
00000000000011001100111001111110
00000000000011001100100110011101
00000000000001110101110111100111
11111111111100001100011010011011
11111111111010111100010110010001
11111111111010011010101011101111
11111111111100011100000011011000
11111111111111011100110000111100
00000000000001100011101111001101
00000000000001011100111011001101
00000000000010010101101010011101
00000000000010100001110011100000
00000000000011011110001101001111
00000000000100101011001110101110
00000000000000110001011111110000
11111111111001110100010000011000
11111111111001101001001101001001
11111111111101001000001111001110
11111111111111100100000000011010
00000000000000110111110111000011
00000000000001100010101111110110
00000000000000100000011101000011
00000000000000101011001100001010
00000000000000001100001101100010
00000000000001111101101011000111
00000000000011000001011011100001
11111111111111001011000111101100
11111111111010001010100000000010
11111111111011001001010110110001
11111111111110010111101100101001
11111111111111101001000001101100
11111111111111101011111001011110
00000000000000001010101101010101
00000000000000000111101000000000
11111111111111001000100010011001
11111111111101011010001101110111
11111111111100110110000011100110
11111111111010101001101101011110
11111111111001101101100010000011
11111111111001011100100100010001
11111111111010111010001001011000
11111111111101010101011011010101
11111111111101011000011000111010
11111111111110001110100010001011
11111111111111100000011011011110
00000000000000000100100010110000
00000000000000000001101100000111
00000000000000000011110011010001
00000000000000010100110101110100
00000000000000111001010011000011
00000000000001111001001010001110
00000000000010111101100101100011
00000000000010001101110001010010
11111111111111110110101001010011
11111111111110001100100010001110
11111111111110011000011011010000
11111111111111001111000010101110
11111111111111110011100110010101
11111111111111111000100010000000
11111111111111101100000001000111
00000000000000110010000000000001
00000000000010010110011011000100
00000000000010010000110110101110
00000000000001100100111101001110
00000000000000010011001110111001
00000000000010011100001101111010
00000000000000101001001111011101
11111111111100110010000111011111
11111111111100110010001110110000
11111111111110110010101100011000
11111111111111100011010010110100
11111111111111111100101010010000
00000000000001111100100000001100
00000000000010011010001011010110
00000000000001010011001111011011
00000000000001101001100010101001
11111111111110101100100110011101
11111111111100001100011100101010
11111111111100011110111010000111
11111111111010000100100100000010
11111111111001101011101111111111
11111111111100111111111101110001
11111111111111000000010001110111
00000000000000011001101101101100
00000000000010111100001010000111
00000000000011110011001110011000
00000000000101000111111010111111
00000000000100001010111011000110
11111111111110001110111001010001
11111111111001010000110100111110
11111111111011101010110001000110
11111111111100011010101001101011
11111111111100101101100100010000
11111111111111010010001100110100
11111111111111000111101010111011
00000000000011110000111101001101
00000000001001110010111001100100
00000000001101000010111000110111
00000000001011111100110001011111
00000000000101000101100111010101
11111111111110101100010100111110
11111111111011111101011100001010
11111111111011110000011110110100
11111111111011000111011001011100
11111111111110100000110111001101
00000000000000010101101111111010
00000000000000010111100111100000
00000000000010101110001000000111
00000000000101110101001110110011
00000000000111011100111101011110
00000000000110011111000000000010
00000000000010001010010111111100
11111111111100011100101010110001
11111111111010101010010100100011
11111111111001001011110010110001
11111111111011101110000000110110
00000000000000110001111110110010
00000000000010011010000000001011
11111111111111000100000100010111
11111111111110101110100011111000
11111111111111111010111010010110
00000000000010110001011110001101
00000000000011001101100110110011
00000000000001101111010010001001
11111111111100110011111010001111
11111111111001110111101010111101
11111111111101101100001100000100
00000000000100000001111001100100
00000000001000010001101011110000
00000000000111100110010111100000
00000000000000010100011111101110
00000000000000000110110111010011
11111111111101111001011010010100
11111111111100011001001010000110
11111111111101101110111110011111
11111111111101101000001110101011
11111111111011010111011011000011
11111111111101100110101100000101
00000000000011010101000101011100
00000000001001000110101001000011
00000000001010101010101000111101
00000000001000000100110100011001
00000000000000110101110100110010
00000000000001100001001000011111
11111111111111010101001101101001
11111111111111000001101101000000
00000000000000000111000000100011
00000000000001110011101011001101
00000000000000101010101010001010
00000000000101000100101010101001
00000000001000110001100100110101
00000000001011000010000100110011
00000000001001001110100100010001
00000000000110000010010000110010
00000000000000000110011000001010
00000000000000001100111010010000
00000000000000110101011010100110
11111111111111101111000100000010
11111111111110100010100010011000
00000000000000000011010001100000
00000000000001100010110000011101
00000000000100110001111001001000
00000000000110000110000100010010
00000000000110110101001100011010
00000000000101000100100110001010
00000000000010101101111010010100
00000000000000101011000100001100
00000000000000010001010001110011
00000000000000110100001100011001
00000000000000110000011010001010
00000000000000000010100001010001
11111111111111110100110001010111
11111111111111010010101111111010
00000000000011000010011110010000
00000000000100101011010011001111
00000000000100001100101011010001
00000000000010110110100000010011
00000000000001011011100011000011
11111111111110011010000111100100
11111111111100101110111010001000
11111111111011111001001011111011
11111111111011111110111000011100
11111111111101011011101001001100
11111111111101100111011111110101
11111111111110000111001010001111
00000000000000010010001011111101
00000000000001101011110001101100
00000000000000001111110100100101
11111111111111101010111010000100
11111111111111111101000100101101
11111111111111111010001011010110
11111111111111111111111101111111
00000000000000000111010110110110
00000000000000011011001001101001
00000000000000101010101111001010
11111111111111110010001100100000
11111111111111010100010111001101
11111111111111001101111100111100
11111111111111001111100101111101
11111111111111010010101000010100
11111111111111100101100111111101
11111111111111111000001011000100
11111111111111110011001001010111
11111111111111110001001100110001
00000000000000011110110100001001
00000000000001010110101000111101
00000000000010001100101110101100
00000000000001110011010001011001
00000000000011010001100101000110
00000000000010111001101111110010
00000000000000101101011010110000
11111111111110111100000011100111
11111111111110100010111000111011
11111111111110111001110010011101
11111111111111100010000010011001
11111111111111000110101101101010
11111111111110111010111011011010
11111111111110111110111000110111
11111111111111010010011010000000
00000000000000100101001000000001
11111111111111111000001000110111
11111111111101010000010010110111
11111111111010001000001110001011
11111111111010100101110101101001
11111111111100001110010110010001
11111111111110000111000001010110
11111111111111001010110011010011
11111111111101111000011011100101
11111111111101110000111001100111
11111111111110101001101010111110
11111111111111101011110011101111
11111111111110110101001010000010
11111111111100101000111000000100
11111111111011011001100000100000
11111111111010111011010011110110
11111111111100000010011010001100
11111111111101101011001011011001
11111111111111100000010101001100
11111111111110110010010101010000
11111111111110000000000000001111
11111111111100110101110010110110
11111111111101001000100010010100
11111111111100010011101011101111
11111111111010000000010010111010
11111111111011000100101011100000
11111111111100001001111010001000
11111111111100011110000000011001
11111111111101010011100100000111
11111111111110011100100000100001
11111111111111100010001101101111
11111111111111000011110110110111
11111111111100011011110010110101
11111111111011010010100100011111
11111111111101100100010001101011
11111111111111100000111110101010
00000000000000001110011000101000
11111111111110101001010110010110
11111111111101011010000010001100
11111111111101011100011101100111
11111111111101110000001101111010
11111111111111001010101001100000
00000000000001101001000100111110
11111111111111100100111110001100
11111111111110111010001011010100
00000000000000111000111110001100
00000000000100010001101111001010
00000000000101010110011010111011
00000000000011010111011101110110
00000000000000100000100110111000
00000000000001010001000011011111
00000000000000010101011010000011
11111111111111111000111001000110
00000000000001001100111111011110
00000000000011001111000001101011
00000000000000101101001101101111
00000000000010011011101000101010
00000000000100100101101101001110
00000000000101010010011000100100
00000000000101010100000010001110
00000000000011100001010010101111
00000000000001010100101100100111
00000000000000001101100100011010
00000000000000001111111010001110
00000000000001100111100011100010
00000000000011001011100101000101
00000000000100110010101001000001
00000000000000100001100011000110
00000000000010111100101100000100
00000000000011111010010000001111
00000000000011011110010111100001
00000000000011000010001100111010
00000000000000101101101110110111
00000000000001000000100001100010
00000000000000111001010101011001
00000000000000111011111001000011
00000000000010000001001000111000
00000000000011101101001111000100
00000000000011110110000001000011
00000000000000101001011001010100
00000000000001100010000000100100
00000000000000101101011001110100
11111111111111111000000111111001
11111111111111001110001111101010
11111111111100111001101101100000
11111111111101110011010010111111
11111111111111101010000100101100
00000000000000000100111110110110
00000000000001100000010100000010
00000000000010111000111011000011
00000000000010010100011110111000
00000000000000001111110110000010
11111111111111111111101010001010
11111111111110111101101110100111
11111111111111001000110101011110
11111111111110110011101010010110
11111111111101011010101110010101
11111111111101000100010100111010
11111111111111110011001010000101
00000000000001101111011010001010
00000000000001111001011010011110
00000000000010000111110100100110
00000000000000100011100101111011
11111111111111101000110011000111
11111111111110011110111101101011
11111111111100111100100110001111
11111111111011100110000101010010
11111111111011001101100001010100
11111111111011011111100101000111
11111111111100110010010101000100
11111111111110000111010110111001
11111111111110011011001110100101
11111111111110111001011101010010
11111111111111110001101100100001
00000000000000000011101110110001
00000000000000000001101111000011
11111111111111111101011111001101
00000000000000000011110101110111
00000000000000001111100111100000
00000000000000010011001100100001
11111111111111010110111101001110
11111111111100010111111100111111
11111111111100010101111100010000
11111111111101000000001001101011
11111111111110001100010100101010
11111111111111100101110101111110
11111111111111110000000011011101
00000000000000000011100100100110
11111111111111100111000010011011
00000000000000101101100100001100
00000000000000111000011010000010
00000000000000100001100101001100
00000000000000010110001001101000
00000000000000001110001100001001
11111111111110000110101111110011
11111111111001101010100000110001
11111111111011001011011111100011
11111111111100111000011010011101
11111111111110001010111100100010
00000000000000000100000010101100
11111111111111111010001000110011
00000000000000100101001110100011
11111111111111000101000100001001
00000000000001000110100101110001
00000000000011001000101110110100
00000000000000110011001001010111
11111111111011011001100110010001
11111111110101110100011111110110
11111111110110111001010011111110
11111111111010011010000100000110
11111111111110101011011110110110
11111111111111100100101101110101
11111111111111000100000100110101
11111111111111010001001010010111
00000000000000000011010001100100
00000000000010011011111011001001
11111111111111001100001100010101
11111111111011100010001100001001
11111111111011110010100101100111
11111111111011111000001101111010
11111111111100110000101000111111
11111111111101101000101101000010
11111111111111110100110110000011
11111111111110101110101011001111
11111111111110101010011111011010
11111111111100101111111000101011
11111111111111000101101010001101
11111111111011100101000001001010
11111111111001101100010010011010
11111111111011101111101110100111
11111111111011110011100010000010
00000000000000000110000001110110
00000000000000111001001101110110
11111111111111011100001010100101
00000000000000100011011001101100
11111111111111101001001000110110
11111111111100110110001011011100
11111111111011110011001100010111
11111111111100001100010100100010
11111111111100000111110101000100
00000000000001001100010001100100
11111111111111010101110001000101
00000000000000011111010110101111
00000000000001011101011100100000
00000000000001100111100000111000
00000000000000101010110110101111
00000000000010011100011111001010
11111111111111110101010010111111
11111111111111010100110000100001
00000000000010111101001010100001
00000000000101101010001011000111
00000000000111101000010011101100
00000000000011000101010010110000
00000000000000001110001011110000
00000000000101000011110111011100
00000000000100101101011001111000
00000000000011011100101110010010
00000000000001011100111101101011
00000000000011101110110101010111
00000000000000011010111011101101
00000000000100010110011110010100
00000000000111110010100100111101
00000000001001011111010000010011
00000000001000100111010101010100
00000000000101010101000001111101
00000000000101101000010010000111
00000000000001001011000010100100
00000000000011100011001011101111
00000000000011000011010000010010
00000000000000110100001111110000
00000000000101000001111010110001
00000000000000111100001011000011
00000000000100011110111010101001
00000000000101000110101110000011
00000000000110111000011001010010
00000000000101110000000101101101
00000000000011111010110010100011
00000000000010111110001011111001
00000000000001100101001001010100
00000000000000110101010110100111
11111111111111011111110100101010
00000000000000000101100110110000
00000000000011010011110010101101
00000000000001000101110101110110
00000000000010001001111000101110
00000000000000110101000100101101
11111111111111111101110101010101
11111111111110000010110011001011
11111111111111110111101111001011
11111111111111110110010000101110
11111111111110111000000010001100
11111111111101101100010100010110
11111111111101100111001011000100
00000000000000111111000101000110
00000000000001000101000001111111
00000000000000110110101001001100
11111111111111110100110001010111
11111111111101110100111110100011
11111111111101001001011100011111
11111111111011100101111011101111
11111111111011101001010000011011
11111111111011011011011100010010
11111111111100100110101001101100
11111111111111001001100011111011
11111111111111011000101100100000
00000000000000100101111101101101
00000000000000000111111101001001
11111111111111100110001111111000
11111111111110000100100000000110
11111111111100110010010001010110
11111111111010101100011111000011
11111111111001100101111001101001
11111111111001010101010101110000
11111111111011011011001000010100
11111111111101000011011110010011
11111111111101101101010000110011
11111111111110001110110001111001
11111111111111100001111011101000
00000000000000000101000000110110
11111111111111110101100100101001
00000000000000000000011011010100
00000000000000001010100110001100
00000000000000101010110011100001
00000000000000111000110010011001
00000000000001001001010001011110
