11111111101100111011010101000000 00000000000110101010010001101011 00000000010110100011000001110000 00000000000100100000001000110010 11111111100000011101000101001110 11111111100101011011001111111110 00000000010100001100010100011010 00000000100011111011100011010010 00000000000001111010000011010100 11111111001101111111111010010001 11111111111000001101111000011101 00000000101011000000110011110011 00000000100111001101100000000011 11111111101110011010011101000011 11111111000101011100000001001110 00000000010001010101010010101010 00000000101011010100100111001111 00000000001101001110011000101111 11111111100000110101110000000111 11111111010011111111011000000101 00000000010100010010111101000110 00000000001001101001111011111001 11111111101000101010001100001100 11111111011101000011001110100011 11111111011111010110001011000110 
11111111001111010001010111001010 11111111011111010000101100101101 11111111110011000011011000010100 00000000001110001101101101111011 00000000011010010101011101100000 11111111011101111100100101101001 11111111101001101100111011100100 11111111111111100110000100101010 00000000011000010001001100100100 00000000010111110111100110010001 11111111010111101001011110011110 11111111101000001010100001011110 00000000001000100000110101110100 00000000100101110111110010101010 00000000011101001110111101000011 11111111010101001011111010100101 11111111100110100011100100110110 00000000000010110001010111010101 00000000011101111100110001010010 00000000011111000100100101101010 11111111010001000010101000011011 11111111011001111011110001010110 11111111100101100001101110101110 00000000000001101111110011110001 00000000010100101001100110000101 
11111111110101100101101101001001 11111111110000111101011001110000 11111111101010011000011111001011 11111111101100101010111101101000 11111111111011110110111111101111 00000000010000100000011010000001 00000000011110011010111011101011 00000000100110000111100100000000 00000000101001100000110110110001 00000000101011110110001001110111 00000000010100001101101110110011 00000000101110111100110011000010 00000000110001001101100000011011 00000000101001000011001011100000 00000000001110110111011000011111 11111111100010000101101101101010 11111111110100001111000111001101 11111111110100010110010110000011 11111111110001011011111001000100 11111111100000100011101110001000 11111110110100010100010110000000 11111110110010100101000001010110 11111110110011100010001000101000 11111111000010010101000001000100 11111111001001101100110100010101 
11111111101011011100100110100110 11111111101101011000011000010111 11111111101110101001001000111001 11111111111000000000100001001100 11111111111110001101000000010111 11111111101100001110110110011000 11111111111000000111110000011001 00000000000000001000001110101110 00000000000110111100111100000011 00000000000100101001000010001110 00000000000101101000101110110110 00000000011000110100111101000000 00000000010110000111100000101011 00000000001011100000000010111010 00000000000011100010010001101011 00000000010011100100011111001100 00000000010100110001000100101011 00000000001001111111011100001110 00000000000101101101000101111110 00000000001000000001010111011101 11111111111011000010110100111000 11111111110011011100101011101010 11111111110110011010101000111101 00000000000000010100100001000101 00000000000111101001110111011000 
11111111100010101100010100001100 11111111011110000010000110000001 11111111100010001110001010001010 11111111111101111111100101010010 00000000001001110110010010100100 11111111010111000111111101101001 11111111101010010000000011110111 00000000010000111111000101100000 00000000100110011110110111011010 00000000001011100110011100111101 11111111011111110001111111111111 00000000010011001101110110110001 00000000110010101001010111000010 00000000011100011100001010111011 11111111101100110100101110101101 11111111111101101011001110100100 00000000100100011100011110111101 00000000011100000110001101000110 11111111110101001001010110001010 11111111100011100000111001000010 00000000001000010011111101010001 00000000001100010001010000110010 11111111110100101101101001011111 11111111101010010011100001010001 11111111110011011010000011101101 
00000000000001110000110011001101 00000000001001010101000010000111 00000000001001110110000001100010 11111111111010010111011101100000 11111111100011100101110011011101 11111111111000101110000011000101 00000000001111001110001011010000 00000000100100101001100101100001 00000000010110100011110100010000 11111111101000110100010110000110 11111111100101010101001010000011 00000000000000101011010110001110 00000000101001100011011001111000 00000000101100110001011110000110 11111111111101110101110010111011 11111111011011111001111010101010 11111111101100010000000111001110 00000000001011100011001100100111 00000000100011101000001110011001 00000000010010100000110110010011 11111111010110111101000000111110 11111111010110110001101010010110 11111111011101010110000110000100 11111111110101000000100001010110 00000000000010010010001010001110 
11111111111010101001101110111010 11111111110111110101000110101001 11111111110010110010010001001010 11111111110110101101101001010011 11111111111011000111000000101101 11111111110000011100011101100111 11111111110101111110110100001111 00000000000000100100000100000001 00000000000110110110001101101010 00000000000111010111011101110000 00000000000111001111000001100000 00000000010111000010001011011110 00000000011001011011101100011100 00000000001101010111000100011001 00000000000100010001011110010010 00000000010111110100100000100010 00000000010101100110101101001110 00000000001001101011001010101010 00000000000100001000100111111011 00000000000100000100000111110000 11111111110101001001111011011010 11111111100111000010011010011000 11111111101010010011100010100010 11111111110110010010010101011100 11111111111110100110000001101100 
11111111111010110010110101100011 11111111101011101101101100000100 11111111010100101010100011000110 11111111001111100011101111101101 11111111011001101000110100001110 00000000010010000111111100111101 00000000011000110010011010000010 11111111111100010000000101000101 11111111011010101011001101011010 11111111001110110010011011111100 00000000001011001011101001010000 00000000110100010100010101100001 00000000111011010001101100000110 00000000010100000111100010010000 11111111100001101000000100110001 11111111110000011011011010011001 00000000010011100111001001000101 00000000110010000100010001100000 00000000100111001100101000100100 11111111111100001100111000010111 11111111100001101010001000111010 11111111100011111101110001101101 11111111111010010010111100001010 00000000010000001000100011010101 00000000000100101100000101111010 
